{
  "vocab": [
    "!",
    "$",
    "&",
    "'",
    ",",
    "-",
    ".",
    "3",
    ":",
    ";",
    "</w>",
    "?",
    "A",
    "B",
    "C",
    "D",
    "E",
    "F",
    "G",
    "H",
    "I",
    "J",
    "K",
    "L",
    "M",
    "N",
    "O",
    "P",
    "Q",
    "R",
    "S",
    "T",
    "U",
    "V",
    "W",
    "X",
    "Y",
    "Z",
    "a",
    "b",
    "c",
    "d",
    "e",
    "f",
    "g",
    "h",
    "i",
    "j",
    "k",
    "l",
    "m",
    "n",
    "o",
    "p",
    "q",
    "r",
    "s",
    "t",
    "u",
    "v",
    "w",
    "x",
    "y",
    "z",
    "e</w>",
    "th",
    ",</w>",
    "t</w>",
    "s</w>",
    "d</w>",
    "ou",
    "er",
    "y</w>",
    "in",
    ":</w>",
    "an",
    "or",
    "o</w>",
    ".</w>",
    "en",
    "ar",
    "on",
    "ll",
    "ha",
    "the</w>",
    "is</w>",
    "f</w>",
    "es",
    "you",
    "I</w>",
    "ll</w>",
    "to</w>",
    "and</w>",
    "ow",
    "ea",
    "e,</w>",
    "r</w>",
    "ing",
    "wi",
    "om",
    ";</w>",
    "st",
    "of</w>",
    "th</w>",
    "hi",
    "ve</w>",
    "a</w>",
    "no",
    "my</w>",
    "in</w>",
    "he</w>",
    "?</w>",
    "se",
    "li",
    "ch",
    "the",
    "re",
    "you</w>",
    "!</w>",
    "An",
    "oo",
    "ti",
    "d,</w>",
    "ri",
    "gh",
    "ma",
    "s,</w>",
    "ra",
    "not</w>",
    "that</w>",
    "m</w>",
    "ed</w>",
    "And</w>",
    "'s</w>",
    "en</w>",
    "on</w>",
    "me</w>",
    "y,</w>",
    "ld</w>",
    "ou</w>",
    "la",
    "t,</w>",
    "as</w>",
    "ut</w>",
    "with</w>",
    "hat</w>",
    "le",
    "be</w>",
    "your</w>",
    "be",
    "O:</w>",
    "k</w>",
    "di",
    "sh",
    "it</w>",
    "ch</w>",
    "ro",
    "ke</w>",
    "for</w>",
    "si",
    "un",
    "EN",
    "IN",
    "fa",
    "have</w>",
    "l</w>",
    "ce</w>",
    "S:</w>",
    "sa",
    "e.</w>",
    "su",
    "ee",
    "ing</w>",
    "AR",
    "'d</w>",
    "n</w>",
    "thou</w>",
    "ur",
    "lo",
    "ta",
    "wh",
    "IO:</w>",
    "thy</w>",
    "sp",
    "Th",
    "it",
    "ould</w>",
    "ly</w>",
    "ca",
    "Wh",
    "US:</w>",
    "will</w>",
    "but</w>",
    "for",
    "com",
    "ir",
    "wa",
    "con",
    "ru",
    "ent",
    "To</w>",
    "wor",
    "da",
    "we",
    "ev",
    "by</w>",
    "ow</w>",
    "UC",
    "p</w>",
    "s.</w>",
    "shall</w>",
    "all</w>",
    "d.</w>",
    "mi",
    "him</w>",
    "ce",
    "so</w>",
    "ING",
    "AN",
    "mu",
    "ds</w>",
    "ck",
    "at",
    "ER",
    "me",
    "ood</w>",
    "OR",
    "ght</w>",
    "mo",
    "ET",
    "sel",
    "de",
    "do</w>",
    "et</w>",
    "qu",
    "her</w>",
    "him",
    "'</w>",
    "ght",
    "o,</w>",
    "'ll</w>",
    "A:</w>",
    "bo",
    "KING",
    "y.</w>",
    "ga",
    "But</w>",
    "from</w>",
    "us</w>",
    "ci",
    "IC",
    "good</w>",
    "do",
    "fi",
    "if</w>",
    "OL",
    "ho",
    "up",
    "ne",
    "vi",
    "te",
    "EL",
    "fu",
    "hea",
    "po",
    "pa",
    "IUS:</w>",
    "KING</w>",
    "ARD",
    "fe",
    "he",
    "would</w>",
    "For</w>",
    "their</w>",
    "--",
    "ST",
    "My</w>",
    "of",
    "they</w>",
    "am</w>",
    "ba",
    "I'll</w>",
    "ve",
    "ol",
    "E:</w>",
    "gi",
    "ge</w>",
    "ON",
    "gu",
    "ble</w>",
    "d;</w>",
    "tru",
    "g</w>",
    "d:</w>",
    "ll,</w>",
    "As</w>",
    "bro",
    "II",
    "s:</w>",
    "ge",
    "A</w>",
    "gra",
    "pro",
    "t.</w>",
    "gh</w>",
    "ni",
    "s;</w>",
    "son",
    "like</w>",
    "make</w>",
    "you,</w>",
    "king",
    "na",
    "ARD</w>",
    "RO",
    "TIO:</w>",
    "w</w>",
    "may</w>",
    "ET:</w>",
    "must</w>",
    "mp",
    "AU",
    "go",
    "du",
    "Y</w>",
    "E</w>",
    "You</w>",
    "them</w>",
    "gain",
    "to",
    "fri",
    "spea",
    "which</w>",
    "K:</w>",
    "If</w>",
    "id</w>",
    "CA",
    "ICH",
    "RICH",
    "ts</w>",
    "DU",
    "DUK",
    "had</w>",
    "DUKE</w>",
    "bu",
    "pp",
    "Ha",
    "know</w>",
    "el",
    "ry</w>",
    "ENTIO:</w>",
    "so",
    "Go",
    "ER:</w>",
    "O</w>",
    "Y:</w>",
    "O,</w>",
    "He</w>",
    "INC",
    "per",
    "ey",
    "ds,</w>",
    "sir,</w>",
    "ful</w>",
    "Fir",
    "say</w>",
    "dy</w>",
    "self",
    "AB",
    "Which</w>",
    "such</w>",
    "ex",
    "k,</w>",
    "take</w>",
    "again",
    "sh</w>",
    "pla",
    "--</w>",
    "most</w>",
    "s?</w>",
    "m,</w>",
    "love</w>",
    "In</w>",
    "LO",
    "give</w>",
    "I:</w>",
    "yet</w>",
    "With</w>",
    "RICHARD</w>",
    "First</w>",
    "coun",
    "EST",
    "frien",
    "Of</w>",
    "t:</w>",
    "cu",
    "al",
    "s!</w>",
    "GLO",
    "GLOUC",
    "GLOUCEST",
    "GLOUCESTER:</w>",
    "ac",
    "EEN",
    "Lor",
    "Ma",
    "LI",
    "ty</w>",
    "pe",
    "y;</w>",
    "d?</w>",
    "QU",
    "QUEEN",
    "VINC",
    "VINCENTIO:</w>",
    "il",
    "y:</w>",
    "OF",
    "OF</w>",
    "How</w>",
    "ig",
    "vo",
    "lord,</w>",
    "HEN",
    "d's</w>",
    "pri",
    "pra",
    "time</w>",
    "know",
    "'tis</w>",
    "So</w>",
    "HENR",
    "HENRY</w>",
    "ES",
    "d!</w>",
    "Is</w>",
    "af",
    "made</w>",
    "hu",
    "QUEEN</w>",
    "Your</w>",
    "mb",
    "YOR",
    "YORK:</w>",
    "jo",
    "We</w>",
    "less</w>",
    "n,</w>",
    "th,</w>",
    "INIUS:</w>",
    "lu",
    "bet",
    "ks</w>",
    "is",
    "PET",
    "any</w>",
    "use</w>",
    "It</w>",
    "'st</w>",
    "art</w>",
    "'T",
    "ED",
    "EDW",
    "way</w>",
    "Why,</w>",
    "GR",
    "much</w>",
    "TH",
    "UM",
    "MI",
    "plea",
    "MEN",
    "ad",
    "LE",
    "LUC",
    "my",
    "IS",
    "cannot</w>",
    "noble</w>",
    "cond</w>",
    "co",
    "doth</w>",
    "tu",
    "ME",
    "kin",
    "dwar",
    "Se",
    "Or</w>",
    "Edwar",
    "ROME",
    "ROMEO:</w>",
    "MENEN",
    "MENENIUS:</w>",
    "No",
    "Ri",
    "By</w>",
    "think</w>",
    "ness</w>",
    "ay,</w>",
    "PETR"
  ],
  "merges": [
    [
      "e",
      "</w>"
    ],
    [
      "t",
      "h"
    ],
    [
      ",",
      "</w>"
    ],
    [
      "t",
      "</w>"
    ],
    [
      "s",
      "</w>"
    ],
    [
      "d",
      "</w>"
    ],
    [
      "o",
      "u"
    ],
    [
      "e",
      "r"
    ],
    [
      "y",
      "</w>"
    ],
    [
      "i",
      "n"
    ],
    [
      ":",
      "</w>"
    ],
    [
      "a",
      "n"
    ],
    [
      "o",
      "r"
    ],
    [
      "o",
      "</w>"
    ],
    [
      ".",
      "</w>"
    ],
    [
      "e",
      "n"
    ],
    [
      "a",
      "r"
    ],
    [
      "o",
      "n"
    ],
    [
      "l",
      "l"
    ],
    [
      "h",
      "a"
    ],
    [
      "th",
      "e</w>"
    ],
    [
      "i",
      "s</w>"
    ],
    [
      "f",
      "</w>"
    ],
    [
      "e",
      "s"
    ],
    [
      "y",
      "ou"
    ],
    [
      "I",
      "</w>"
    ],
    [
      "ll",
      "</w>"
    ],
    [
      "t",
      "o</w>"
    ],
    [
      "an",
      "d</w>"
    ],
    [
      "o",
      "w"
    ],
    [
      "e",
      "a"
    ],
    [
      "e",
      ",</w>"
    ],
    [
      "r",
      "</w>"
    ],
    [
      "in",
      "g"
    ],
    [
      "w",
      "i"
    ],
    [
      "o",
      "m"
    ],
    [
      ";",
      "</w>"
    ],
    [
      "s",
      "t"
    ],
    [
      "o",
      "f</w>"
    ],
    [
      "th",
      "</w>"
    ],
    [
      "h",
      "i"
    ],
    [
      "v",
      "e</w>"
    ],
    [
      "a",
      "</w>"
    ],
    [
      "n",
      "o"
    ],
    [
      "m",
      "y</w>"
    ],
    [
      "in",
      "</w>"
    ],
    [
      "h",
      "e</w>"
    ],
    [
      "?",
      "</w>"
    ],
    [
      "s",
      "e"
    ],
    [
      "l",
      "i"
    ],
    [
      "c",
      "h"
    ],
    [
      "th",
      "e"
    ],
    [
      "r",
      "e"
    ],
    [
      "you",
      "</w>"
    ],
    [
      "!",
      "</w>"
    ],
    [
      "A",
      "n"
    ],
    [
      "o",
      "o"
    ],
    [
      "t",
      "i"
    ],
    [
      "d",
      ",</w>"
    ],
    [
      "r",
      "i"
    ],
    [
      "g",
      "h"
    ],
    [
      "m",
      "a"
    ],
    [
      "s",
      ",</w>"
    ],
    [
      "r",
      "a"
    ],
    [
      "no",
      "t</w>"
    ],
    [
      "tha",
      "t</w>"
    ],
    [
      "m",
      "</w>"
    ],
    [
      "e",
      "d</w>"
    ],
    [
      "An",
      "d</w>"
    ],
    [
      "'",
      "s</w>"
    ],
    [
      "en",
      "</w>"
    ],
    [
      "on",
      "</w>"
    ],
    [
      "m",
      "e</w>"
    ],
    [
      "y",
      ",</w>"
    ],
    [
      "l",
      "d</w>"
    ],
    [
      "ou",
      "</w>"
    ],
    [
      "l",
      "a"
    ],
    [
      "t",
      ",</w>"
    ],
    [
      "a",
      "s</w>"
    ],
    [
      "u",
      "t</w>"
    ],
    [
      "wi",
      "th</w>"
    ],
    [
      "ha",
      "t</w>"
    ],
    [
      "l",
      "e"
    ],
    [
      "b",
      "e</w>"
    ],
    [
      "you",
      "r</w>"
    ],
    [
      "b",
      "e"
    ],
    [
      "O",
      ":</w>"
    ],
    [
      "k",
      "</w>"
    ],
    [
      "d",
      "i"
    ],
    [
      "s",
      "h"
    ],
    [
      "i",
      "t</w>"
    ],
    [
      "ch",
      "</w>"
    ],
    [
      "r",
      "o"
    ],
    [
      "k",
      "e</w>"
    ],
    [
      "f",
      "or</w>"
    ],
    [
      "s",
      "i"
    ],
    [
      "u",
      "n"
    ],
    [
      "E",
      "N"
    ],
    [
      "I",
      "N"
    ],
    [
      "f",
      "a"
    ],
    [
      "ha",
      "ve</w>"
    ],
    [
      "l",
      "</w>"
    ],
    [
      "c",
      "e</w>"
    ],
    [
      "S",
      ":</w>"
    ],
    [
      "s",
      "a"
    ],
    [
      "e",
      ".</w>"
    ],
    [
      "s",
      "u"
    ],
    [
      "e",
      "e"
    ],
    [
      "ing",
      "</w>"
    ],
    [
      "A",
      "R"
    ],
    [
      "'",
      "d</w>"
    ],
    [
      "n",
      "</w>"
    ],
    [
      "th",
      "ou</w>"
    ],
    [
      "u",
      "r"
    ],
    [
      "l",
      "o"
    ],
    [
      "t",
      "a"
    ],
    [
      "w",
      "h"
    ],
    [
      "I",
      "O:</w>"
    ],
    [
      "th",
      "y</w>"
    ],
    [
      "s",
      "p"
    ],
    [
      "T",
      "h"
    ],
    [
      "i",
      "t"
    ],
    [
      "ou",
      "ld</w>"
    ],
    [
      "l",
      "y</w>"
    ],
    [
      "c",
      "a"
    ],
    [
      "W",
      "h"
    ],
    [
      "U",
      "S:</w>"
    ],
    [
      "wi",
      "ll</w>"
    ],
    [
      "b",
      "ut</w>"
    ],
    [
      "f",
      "or"
    ],
    [
      "c",
      "om"
    ],
    [
      "i",
      "r"
    ],
    [
      "w",
      "a"
    ],
    [
      "c",
      "on"
    ],
    [
      "r",
      "u"
    ],
    [
      "en",
      "t"
    ],
    [
      "T",
      "o</w>"
    ],
    [
      "w",
      "or"
    ],
    [
      "d",
      "a"
    ],
    [
      "w",
      "e"
    ],
    [
      "e",
      "v"
    ],
    [
      "b",
      "y</w>"
    ],
    [
      "ow",
      "</w>"
    ],
    [
      "U",
      "C"
    ],
    [
      "p",
      "</w>"
    ],
    [
      "s",
      ".</w>"
    ],
    [
      "sha",
      "ll</w>"
    ],
    [
      "a",
      "ll</w>"
    ],
    [
      "d",
      ".</w>"
    ],
    [
      "m",
      "i"
    ],
    [
      "hi",
      "m</w>"
    ],
    [
      "c",
      "e"
    ],
    [
      "s",
      "o</w>"
    ],
    [
      "IN",
      "G"
    ],
    [
      "A",
      "N"
    ],
    [
      "m",
      "u"
    ],
    [
      "d",
      "s</w>"
    ],
    [
      "c",
      "k"
    ],
    [
      "a",
      "t"
    ],
    [
      "E",
      "R"
    ],
    [
      "m",
      "e"
    ],
    [
      "oo",
      "d</w>"
    ],
    [
      "O",
      "R"
    ],
    [
      "gh",
      "t</w>"
    ],
    [
      "m",
      "o"
    ],
    [
      "E",
      "T"
    ],
    [
      "se",
      "l"
    ],
    [
      "d",
      "e"
    ],
    [
      "d",
      "o</w>"
    ],
    [
      "e",
      "t</w>"
    ],
    [
      "q",
      "u"
    ],
    [
      "h",
      "er</w>"
    ],
    [
      "hi",
      "m"
    ],
    [
      "'",
      "</w>"
    ],
    [
      "gh",
      "t"
    ],
    [
      "o",
      ",</w>"
    ],
    [
      "'",
      "ll</w>"
    ],
    [
      "A",
      ":</w>"
    ],
    [
      "b",
      "o"
    ],
    [
      "K",
      "ING"
    ],
    [
      "y",
      ".</w>"
    ],
    [
      "g",
      "a"
    ],
    [
      "B",
      "ut</w>"
    ],
    [
      "f",
      "rom</w>"
    ],
    [
      "u",
      "s</w>"
    ],
    [
      "c",
      "i"
    ],
    [
      "I",
      "C"
    ],
    [
      "g",
      "ood</w>"
    ],
    [
      "d",
      "o"
    ],
    [
      "f",
      "i"
    ],
    [
      "i",
      "f</w>"
    ],
    [
      "O",
      "L"
    ],
    [
      "h",
      "o"
    ],
    [
      "u",
      "p"
    ],
    [
      "n",
      "e"
    ],
    [
      "v",
      "i"
    ],
    [
      "t",
      "e"
    ],
    [
      "E",
      "L"
    ],
    [
      "f",
      "u"
    ],
    [
      "h",
      "ea"
    ],
    [
      "p",
      "o"
    ],
    [
      "p",
      "a"
    ],
    [
      "I",
      "US:</w>"
    ],
    [
      "KING",
      "</w>"
    ],
    [
      "AR",
      "D"
    ],
    [
      "f",
      "e"
    ],
    [
      "h",
      "e"
    ],
    [
      "w",
      "ould</w>"
    ],
    [
      "F",
      "or</w>"
    ],
    [
      "the",
      "ir</w>"
    ],
    [
      "-",
      "-"
    ],
    [
      "S",
      "T"
    ],
    [
      "M",
      "y</w>"
    ],
    [
      "o",
      "f"
    ],
    [
      "the",
      "y</w>"
    ],
    [
      "a",
      "m</w>"
    ],
    [
      "b",
      "a"
    ],
    [
      "I",
      "'ll</w>"
    ],
    [
      "v",
      "e"
    ],
    [
      "o",
      "l"
    ],
    [
      "E",
      ":</w>"
    ],
    [
      "g",
      "i"
    ],
    [
      "g",
      "e</w>"
    ],
    [
      "O",
      "N"
    ],
    [
      "g",
      "u"
    ],
    [
      "b",
      "le</w>"
    ],
    [
      "d",
      ";</w>"
    ],
    [
      "t",
      "ru"
    ],
    [
      "g",
      "</w>"
    ],
    [
      "d",
      ":</w>"
    ],
    [
      "ll",
      ",</w>"
    ],
    [
      "A",
      "s</w>"
    ],
    [
      "b",
      "ro"
    ],
    [
      "I",
      "I"
    ],
    [
      "s",
      ":</w>"
    ],
    [
      "g",
      "e"
    ],
    [
      "A",
      "</w>"
    ],
    [
      "g",
      "ra"
    ],
    [
      "p",
      "ro"
    ],
    [
      "t",
      ".</w>"
    ],
    [
      "gh",
      "</w>"
    ],
    [
      "n",
      "i"
    ],
    [
      "s",
      ";</w>"
    ],
    [
      "s",
      "on"
    ],
    [
      "li",
      "ke</w>"
    ],
    [
      "ma",
      "ke</w>"
    ],
    [
      "you",
      ",</w>"
    ],
    [
      "k",
      "ing"
    ],
    [
      "n",
      "a"
    ],
    [
      "ARD",
      "</w>"
    ],
    [
      "R",
      "O"
    ],
    [
      "T",
      "IO:</w>"
    ],
    [
      "w",
      "</w>"
    ],
    [
      "ma",
      "y</w>"
    ],
    [
      "ET",
      ":</w>"
    ],
    [
      "mu",
      "st</w>"
    ],
    [
      "m",
      "p"
    ],
    [
      "A",
      "U"
    ],
    [
      "g",
      "o"
    ],
    [
      "d",
      "u"
    ],
    [
      "Y",
      "</w>"
    ],
    [
      "E",
      "</w>"
    ],
    [
      "Y",
      "ou</w>"
    ],
    [
      "the",
      "m</w>"
    ],
    [
      "ga",
      "in"
    ],
    [
      "t",
      "o"
    ],
    [
      "f",
      "ri"
    ],
    [
      "sp",
      "ea"
    ],
    [
      "whi",
      "ch</w>"
    ],
    [
      "K",
      ":</w>"
    ],
    [
      "I",
      "f</w>"
    ],
    [
      "i",
      "d</w>"
    ],
    [
      "C",
      "A"
    ],
    [
      "IC",
      "H"
    ],
    [
      "R",
      "ICH"
    ],
    [
      "t",
      "s</w>"
    ],
    [
      "D",
      "U"
    ],
    [
      "DU",
      "K"
    ],
    [
      "ha",
      "d</w>"
    ],
    [
      "DUK",
      "E</w>"
    ],
    [
      "b",
      "u"
    ],
    [
      "p",
      "p"
    ],
    [
      "H",
      "a"
    ],
    [
      "k",
      "now</w>"
    ],
    [
      "e",
      "l"
    ],
    [
      "r",
      "y</w>"
    ],
    [
      "EN",
      "TIO:</w>"
    ],
    [
      "s",
      "o"
    ],
    [
      "G",
      "o"
    ],
    [
      "ER",
      ":</w>"
    ],
    [
      "O",
      "</w>"
    ],
    [
      "Y",
      ":</w>"
    ],
    [
      "O",
      ",</w>"
    ],
    [
      "H",
      "e</w>"
    ],
    [
      "IN",
      "C"
    ],
    [
      "p",
      "er"
    ],
    [
      "e",
      "y"
    ],
    [
      "d",
      "s,</w>"
    ],
    [
      "sir",
      ",</w>"
    ],
    [
      "fu",
      "l</w>"
    ],
    [
      "F",
      "ir"
    ],
    [
      "sa",
      "y</w>"
    ],
    [
      "d",
      "y</w>"
    ],
    [
      "sel",
      "f"
    ],
    [
      "A",
      "B"
    ],
    [
      "Whi",
      "ch</w>"
    ],
    [
      "su",
      "ch</w>"
    ],
    [
      "e",
      "x"
    ],
    [
      "k",
      ",</w>"
    ],
    [
      "ta",
      "ke</w>"
    ],
    [
      "a",
      "gain"
    ],
    [
      "sh",
      "</w>"
    ],
    [
      "p",
      "la"
    ],
    [
      "--",
      "</w>"
    ],
    [
      "mo",
      "st</w>"
    ],
    [
      "s",
      "?</w>"
    ],
    [
      "m",
      ",</w>"
    ],
    [
      "lo",
      "ve</w>"
    ],
    [
      "I",
      "n</w>"
    ],
    [
      "L",
      "O"
    ],
    [
      "gi",
      "ve</w>"
    ],
    [
      "I",
      ":</w>"
    ],
    [
      "y",
      "et</w>"
    ],
    [
      "W",
      "ith</w>"
    ],
    [
      "RICH",
      "ARD</w>"
    ],
    [
      "Fir",
      "st</w>"
    ],
    [
      "c",
      "oun"
    ],
    [
      "E",
      "ST"
    ],
    [
      "fri",
      "en"
    ],
    [
      "O",
      "f</w>"
    ],
    [
      "t",
      ":</w>"
    ],
    [
      "c",
      "u"
    ],
    [
      "a",
      "l"
    ],
    [
      "s",
      "!</w>"
    ],
    [
      "G",
      "LO"
    ],
    [
      "GLO",
      "UC"
    ],
    [
      "GLOUC",
      "EST"
    ],
    [
      "GLOUCEST",
      "ER:</w>"
    ],
    [
      "a",
      "c"
    ],
    [
      "E",
      "EN"
    ],
    [
      "L",
      "or"
    ],
    [
      "M",
      "a"
    ],
    [
      "L",
      "I"
    ],
    [
      "t",
      "y</w>"
    ],
    [
      "p",
      "e"
    ],
    [
      "y",
      ";</w>"
    ],
    [
      "d",
      "?</w>"
    ],
    [
      "Q",
      "U"
    ],
    [
      "QU",
      "EEN"
    ],
    [
      "V",
      "INC"
    ],
    [
      "VINC",
      "ENTIO:</w>"
    ],
    [
      "i",
      "l"
    ],
    [
      "y",
      ":</w>"
    ],
    [
      "O",
      "F"
    ],
    [
      "OF",
      "</w>"
    ],
    [
      "H",
      "ow</w>"
    ],
    [
      "i",
      "g"
    ],
    [
      "v",
      "o"
    ],
    [
      "lor",
      "d,</w>"
    ],
    [
      "H",
      "EN"
    ],
    [
      "d",
      "'s</w>"
    ],
    [
      "p",
      "ri"
    ],
    [
      "p",
      "ra"
    ],
    [
      "ti",
      "me</w>"
    ],
    [
      "k",
      "now"
    ],
    [
      "'",
      "tis</w>"
    ],
    [
      "S",
      "o</w>"
    ],
    [
      "HEN",
      "R"
    ],
    [
      "HENR",
      "Y</w>"
    ],
    [
      "E",
      "S"
    ],
    [
      "d",
      "!</w>"
    ],
    [
      "I",
      "s</w>"
    ],
    [
      "a",
      "f"
    ],
    [
      "ma",
      "de</w>"
    ],
    [
      "h",
      "u"
    ],
    [
      "QUEEN",
      "</w>"
    ],
    [
      "Y",
      "our</w>"
    ],
    [
      "m",
      "b"
    ],
    [
      "Y",
      "OR"
    ],
    [
      "YOR",
      "K:</w>"
    ],
    [
      "j",
      "o"
    ],
    [
      "W",
      "e</w>"
    ],
    [
      "les",
      "s</w>"
    ],
    [
      "n",
      ",</w>"
    ],
    [
      "th",
      ",</w>"
    ],
    [
      "IN",
      "IUS:</w>"
    ],
    [
      "l",
      "u"
    ],
    [
      "be",
      "t"
    ],
    [
      "k",
      "s</w>"
    ],
    [
      "i",
      "s"
    ],
    [
      "P",
      "ET"
    ],
    [
      "an",
      "y</w>"
    ],
    [
      "u",
      "se</w>"
    ],
    [
      "I",
      "t</w>"
    ],
    [
      "'",
      "st</w>"
    ],
    [
      "ar",
      "t</w>"
    ],
    [
      "'",
      "T"
    ],
    [
      "E",
      "D"
    ],
    [
      "ED",
      "W"
    ],
    [
      "wa",
      "y</w>"
    ],
    [
      "Wh",
      "y,</w>"
    ],
    [
      "G",
      "R"
    ],
    [
      "mu",
      "ch</w>"
    ],
    [
      "T",
      "H"
    ],
    [
      "U",
      "M"
    ],
    [
      "M",
      "I"
    ],
    [
      "p",
      "lea"
    ],
    [
      "M",
      "EN"
    ],
    [
      "a",
      "d"
    ],
    [
      "L",
      "E"
    ],
    [
      "L",
      "UC"
    ],
    [
      "m",
      "y"
    ],
    [
      "I",
      "S"
    ],
    [
      "can",
      "not</w>"
    ],
    [
      "no",
      "ble</w>"
    ],
    [
      "con",
      "d</w>"
    ],
    [
      "c",
      "o"
    ],
    [
      "do",
      "th</w>"
    ],
    [
      "t",
      "u"
    ],
    [
      "M",
      "E"
    ],
    [
      "k",
      "in"
    ],
    [
      "d",
      "war"
    ],
    [
      "S",
      "e"
    ],
    [
      "O",
      "r</w>"
    ],
    [
      "E",
      "dwar"
    ],
    [
      "RO",
      "ME"
    ],
    [
      "ROME",
      "O:</w>"
    ],
    [
      "MEN",
      "EN"
    ],
    [
      "MENEN",
      "IUS:</w>"
    ],
    [
      "N",
      "o"
    ],
    [
      "R",
      "i"
    ],
    [
      "B",
      "y</w>"
    ],
    [
      "thin",
      "k</w>"
    ],
    [
      "nes",
      "s</w>"
    ],
    [
      "a",
      "y,</w>"
    ],
    [
      "PET",
      "R"
    ]
  ]
}