{
  "vocab": [
    "!",
    "$",
    "&",
    "'",
    ",",
    "-",
    ".",
    "3",
    ":",
    ";",
    "</w>",
    "?",
    "A",
    "B",
    "C",
    "D",
    "E",
    "F",
    "G",
    "H",
    "I",
    "J",
    "K",
    "L",
    "M",
    "N",
    "O",
    "P",
    "Q",
    "R",
    "S",
    "T",
    "U",
    "V",
    "W",
    "X",
    "Y",
    "Z",
    "a",
    "b",
    "c",
    "d",
    "e",
    "f",
    "g",
    "h",
    "i",
    "j",
    "k",
    "l",
    "m",
    "n",
    "o",
    "p",
    "q",
    "r",
    "s",
    "t",
    "u",
    "v",
    "w",
    "x",
    "y",
    "z",
    "e</w>",
    "th",
    ",</w>",
    "t</w>",
    "s</w>",
    "d</w>",
    "ou",
    "er",
    "y</w>",
    "in",
    ":</w>",
    "an",
    "or",
    "o</w>",
    ".</w>",
    "en",
    "ar",
    "on",
    "ll",
    "ha",
    "the</w>",
    "is</w>",
    "f</w>",
    "es",
    "you",
    "I</w>",
    "ll</w>",
    "to</w>",
    "and</w>",
    "ow",
    "ea",
    "e,</w>",
    "r</w>",
    "ing",
    "wi",
    "om",
    ";</w>",
    "st",
    "of</w>",
    "th</w>",
    "hi",
    "ve</w>",
    "a</w>",
    "no",
    "my</w>",
    "in</w>",
    "he</w>",
    "?</w>",
    "se",
    "li",
    "ch",
    "the",
    "re",
    "you</w>",
    "!</w>",
    "An",
    "oo",
    "ti",
    "d,</w>",
    "ri",
    "gh",
    "ma",
    "s,</w>",
    "ra",
    "not</w>",
    "that</w>",
    "m</w>",
    "ed</w>",
    "And</w>",
    "'s</w>",
    "en</w>",
    "on</w>",
    "me</w>",
    "y,</w>",
    "ld</w>",
    "ou</w>",
    "la",
    "t,</w>",
    "as</w>",
    "ut</w>",
    "with</w>",
    "hat</w>",
    "le",
    "be</w>",
    "your</w>",
    "be",
    "O:</w>",
    "k</w>",
    "di",
    "sh",
    "it</w>",
    "ch</w>",
    "ro",
    "ke</w>",
    "for</w>",
    "si",
    "un",
    "EN",
    "IN",
    "fa",
    "have</w>",
    "l</w>",
    "ce</w>",
    "S:</w>",
    "sa",
    "e.</w>",
    "su",
    "ee",
    "ing</w>",
    "AR",
    "'d</w>",
    "n</w>",
    "thou</w>",
    "ur",
    "lo",
    "ta",
    "wh",
    "IO:</w>",
    "thy</w>",
    "sp",
    "Th",
    "it",
    "ould</w>",
    "ly</w>",
    "ca",
    "Wh",
    "US:</w>",
    "will</w>",
    "but</w>",
    "for",
    "com",
    "ir",
    "wa",
    "con",
    "ru",
    "ent",
    "To</w>",
    "wor",
    "da",
    "we",
    "ev",
    "by</w>",
    "ow</w>",
    "UC",
    "p</w>",
    "s.</w>",
    "shall</w>",
    "all</w>",
    "d.</w>",
    "mi",
    "him</w>",
    "ce",
    "so</w>",
    "ING",
    "AN",
    "mu",
    "ds</w>",
    "ck",
    "at",
    "ER",
    "me",
    "ood</w>",
    "OR",
    "ght</w>",
    "mo",
    "ET",
    "sel",
    "de",
    "do</w>",
    "et</w>",
    "qu",
    "her</w>",
    "him",
    "'</w>",
    "ght",
    "o,</w>",
    "'ll</w>",
    "A:</w>",
    "bo",
    "KING",
    "y.</w>",
    "ga",
    "But</w>",
    "from</w>",
    "us</w>",
    "ci",
    "IC",
    "good</w>",
    "do",
    "fi",
    "if</w>",
    "OL",
    "ho",
    "up",
    "ne",
    "vi",
    "te",
    "EL",
    "fu",
    "hea",
    "po",
    "pa",
    "IUS:</w>",
    "KING</w>",
    "ARD",
    "fe",
    "he",
    "would</w>",
    "For</w>",
    "their</w>",
    "--",
    "ST",
    "My</w>",
    "of",
    "they</w>",
    "am</w>",
    "ba",
    "I'll</w>",
    "ve",
    "ol",
    "E:</w>",
    "gi",
    "ge</w>",
    "ON",
    "gu",
    "ble</w>",
    "d;</w>",
    "tru",
    "g</w>",
    "d:</w>",
    "ll,</w>",
    "As</w>",
    "bro",
    "II",
    "s:</w>",
    "ge",
    "A</w>",
    "gra",
    "pro",
    "t.</w>",
    "gh</w>",
    "ni",
    "s;</w>",
    "son",
    "like</w>",
    "make</w>",
    "you,</w>",
    "king",
    "na",
    "ARD</w>",
    "RO",
    "TIO:</w>",
    "w</w>",
    "may</w>",
    "ET:</w>",
    "must</w>",
    "mp",
    "AU",
    "go",
    "du",
    "Y</w>",
    "E</w>",
    "You</w>",
    "them</w>",
    "gain",
    "to",
    "fri",
    "spea",
    "which</w>",
    "K:</w>",
    "If</w>",
    "id</w>",
    "CA",
    "ICH",
    "RICH",
    "ts</w>",
    "DU",
    "DUK",
    "had</w>",
    "DUKE</w>",
    "bu",
    "pp",
    "Ha",
    "know</w>",
    "el",
    "ry</w>",
    "ENTIO:</w>",
    "so",
    "Go",
    "ER:</w>",
    "O</w>",
    "Y:</w>",
    "O,</w>",
    "He</w>",
    "INC",
    "per",
    "ey",
    "ds,</w>",
    "sir,</w>",
    "ful</w>",
    "Fir",
    "say</w>",
    "dy</w>",
    "self",
    "AB",
    "Which</w>",
    "such</w>",
    "ex",
    "k,</w>",
    "take</w>",
    "again",
    "sh</w>",
    "pla",
    "--</w>",
    "most</w>",
    "s?</w>",
    "m,</w>",
    "love</w>",
    "In</w>",
    "LO",
    "give</w>",
    "I:</w>",
    "yet</w>",
    "With</w>",
    "RICHARD</w>",
    "First</w>",
    "coun",
    "EST",
    "frien",
    "Of</w>",
    "t:</w>",
    "cu",
    "al",
    "s!</w>",
    "GLO",
    "GLOUC",
    "GLOUCEST",
    "GLOUCESTER:</w>",
    "ac",
    "EEN",
    "Lor",
    "Ma",
    "LI",
    "ty</w>",
    "pe",
    "y;</w>",
    "d?</w>",
    "QU",
    "QUEEN",
    "VINC",
    "VINCENTIO:</w>",
    "il",
    "y:</w>",
    "OF",
    "OF</w>",
    "How</w>",
    "ig",
    "vo",
    "lord,</w>",
    "HEN",
    "d's</w>",
    "pri",
    "pra",
    "time</w>",
    "know",
    "'tis</w>",
    "So</w>",
    "HENR",
    "HENRY</w>",
    "ES",
    "d!</w>",
    "Is</w>",
    "af",
    "made</w>",
    "hu",
    "QUEEN</w>",
    "Your</w>",
    "mb",
    "YOR",
    "YORK:</w>",
    "jo",
    "We</w>",
    "less</w>",
    "n,</w>",
    "th,</w>",
    "INIUS:</w>",
    "lu",
    "bet",
    "ks</w>",
    "is",
    "PET",
    "any</w>",
    "use</w>",
    "It</w>",
    "'st</w>",
    "art</w>",
    "'T",
    "ED",
    "EDW",
    "way</w>",
    "Why,</w>",
    "GR",
    "much</w>",
    "TH",
    "UM",
    "MI",
    "plea",
    "MEN",
    "ad",
    "LE",
    "LUC",
    "my",
    "IS",
    "cannot</w>",
    "noble</w>",
    "cond</w>",
    "co",
    "doth</w>",
    "tu",
    "ME",
    "kin",
    "dwar",
    "Se",
    "Or</w>",
    "Edwar",
    "ROME",
    "ROMEO:</w>",
    "MENEN",
    "MENENIUS:</w>",
    "No",
    "Ri",
    "By</w>",
    "think</w>",
    "ness</w>",
    "ay,</w>",
    "PETR",
    "PETRUC",
    "PETRUCH",
    "PETRUCHIO:</w>",
    "God</w>",
    "speak</w>",
    "'d,</w>",
    "ju",
    "him.</w>",
    "as",
    "Come,</w>",
    "Ay,</w>",
    "MAR",
    "new",
    "HA",
    "ONT",
    "van",
    "COR",
    "CORI",
    "CORIOL",
    "CORIOLAN",
    "brother",
    "Second</w>",
    "being</w>",
    "ke",
    "CORIOLANUS:</w>",
    "you.</w>",
    "man:</w>",
    "y!</w>",
    "ct</w>",
    "Be",
    "tri",
    "crow",
    "fair</w>",
    "t's</w>",
    "Rome",
    "BA",
    "dau",
    "own</w>",
    "t;</w>",
    "bloo",
    "rie",
    "zen",
    "not,</w>",
    "'er</w>",
    "gentle",
    "Lord</w>",
    "IV",
    "D:</w>",
    "great</w>",
    "III:</w>",
    "'t</w>",
    "pre",
    "tle</w>",
    "ys</w>",
    "them",
    "War",
    "sweet</w>",
    "Warwi",
    "y?</w>",
    "Ca",
    "His</w>",
    "before</w>",
    "AD",
    "Un",
    "'Tis</w>",
    "ISAB",
    "ISABEL",
    "ISABELL",
    "ISABELLA:</w>",
    "tongu",
    "pu",
    "RAN",
    "Let</w>",
    "And,</w>",
    "JU",
    "JULI",
    "JULIET:</w>",
    "LEONT",
    "LEONTES:</w>",
    "sla",
    "day</w>",
    "tion</w>",
    "ry,</w>",
    "us,</w>",
    "though</w>",
    "Bu",
    "LAD",
    "LADY</w>",
    "op",
    "ENC",
    "ENCE:</w>",
    "ir,</w>",
    "swor",
    "BR",
    "se:</w>",
    "Citi",
    "Citizen",
    "leave</w>",
    "Hen",
    "against</w>",
    "n.</w>",
    "Nay,</w>",
    "ch,</w>",
    "y's</w>",
    "SIC",
    "SICINIUS:</w>",
    "now,</w>",
    "both</w>",
    "tw",
    "look</w>",
    "those</w>",
    "Pro",
    "lie",
    "me;</w>",
    "cause</w>",
    "LUCIO:</w>",
    "other</w>",
    "Not</w>",
    "to-",
    "Richar",
    "EDWARD</w>",
    "IV:</w>",
    "tra",
    "ms</w>",
    "Have</w>",
    "ive</w>",
    "Yor",
    "ul",
    "o'</w>",
    "bra",
    "Thy</w>",
    "k.</w>",
    "t?</w>",
    "ELIZ",
    "ELIZAB",
    "ELIZABETH",
    "ELIZABETH:</w>",
    "unto</w>",
    "ft</w>",
    "sub",
    "true</w>",
    "hus",
    "En",
    "GRE",
    "IAN",
    "peop",
    "little</w>",
    "dst</w>",
    ",--</w>",
    "name</w>",
    "S</w>",
    "roy",
    "CL",
    "mother",
    "I,</w>",
    "Now,</w>",
    "life</w>",
    "WAR",
    "WARW",
    "WARWIC",
    "WARWICK:</w>",
    "Citizen:</w>",
    "UT",
    "better</w>",
    "king,</w>",
    "happ",
    "Nur",
    "dly</w>",
    "n:</w>",
    "HAM",
    "HAM:</w>",
    "two</w>",
    "CAP",
    "CAPU",
    "CAPULET:</w>",
    "Well,</w>",
    "Shall</w>",
    "h,</w>",
    "pi",
    "ly,</w>",
    "s'</w>",
    "BRUT",
    "BRUTUS:</w>",
    "BUC",
    "BUCKING",
    "BUCKINGHAM:</w>",
    "awa",
    "ts,</w>",
    "Will</w>",
    "From</w>",
    "keep</w>",
    "bid</w>",
    "nothing</w>",
    "clo",
    "worl",
    "BOLING",
    "BOLINGBRO",
    "BOLINGBROK",
    "BOLINGBROKE:</w>",
    "TRAN",
    "TRANIO:</w>",
    "whose</w>",
    "ans",
    "bring</w>",
    "self,</w>",
    "Sa",
    "Nurse:</w>",
    "wo",
    "je",
    "pray</w>",
    "ds.</w>",
    "ps</w>",
    "doub",
    "wron",
    "int</w>",
    "Ta",
    "dra",
    "MARG",
    "MARGAR",
    "MARGARET:</w>",
    "ESS</w>",
    "find</w>",
    "King</w>",
    "MIL",
    "Our</w>",
    "eyes</w>",
    "Why</w>",
    "Pe",
    "reme",
    "Yet</w>",
    "daughter",
    "comfor",
    "She</w>",
    "Bo",
    "voi",
    "young</w>",
    "ANG",
    "ANGELO:</w>",
    "HOR",
    "me:</w>",
    "qui",
    "n'd</w>",
    "p,</w>",
    "Claren",
    "EL:</w>",
    "KA",
    "INA:</w>",
    "Marci",
    "Li",
    "long</w>",
    "year",
    "KATHAR",
    "KATHARINA:</w>",
    "came</w>",
    "thought</w>",
    "f,</w>",
    "me?</w>",
    "Here</w>",
    "Du",
    "Eng",
    "MP",
    "ab",
    "else</w>",
    "ce:</w>",
    "law",
    "heard</w>",
    "and,</w>",
    "cla",
    "gracious</w>",
    "Do</w>",
    "into</w>",
    "love,</w>",
    "grie",
    "ESCA",
    "ESCAL",
    "ESCALUS:</w>",
    "t!</w>",
    "slee",
    "love",
    "off</w>",
    "fec",
    "Sir,</w>",
    "c</w>",
    "th.</w>",
    "lord.</w>",
    "AND:</w>",
    "count",
    "heaven</w>",
    "therefore</w>",
    "Duke</w>",
    "DUCH",
    "stay</w>",
    "since</w>",
    "well.</w>",
    "first</w>",
    "makes</w>",
    ",--",
    "myself</w>",
    "royal</w>",
    "Provo",
    "ROS",
    "faul",
    "fo",
    "forth</w>",
    "father,</w>",
    "once</w>",
    "k'd</w>",
    "IA:</w>",
    "m.</w>",
    "pt</w>",
    "dost</w>",
    "VI:</w>",
    "CAMIL",
    "CAMILLO:</w>",
    "thousand</w>",
    "Even</w>",
    "Edward</w>",
    "DUCHESS</w>",
    "ly.</w>",
    "ns</w>",
    "Le",
    "Come</w>",
    "d-",
    "vereig",
    "HORT",
    "HORTEN",
    "HORTENS",
    "But,</w>",
    "offi",
    "turn</w>",
    "All</w>",
    "pher",
    "sovereig",
    "FR",
    "FRI",
    "FRIAR",
    "FRIAR</w>",
    "HORTENSIO:</w>",
    "ce;</w>",
    "virtu",
    "ter,</w>",
    "Upon</w>",
    "i'</w>",
    "Are</w>",
    "lau",
    "Ty",
    "wilt</w>",
    "thou,</w>",
    "BAP",
    "BAPT",
    "BAPTIST",
    "BAPTISTA:</w>",
    "Would</w>",
    "rough</w>",
    "CO",
    "COMINIUS:</w>",
    "In",
    "life,</w>",
    "Mur",
    "AUTOL",
    "AUTOLY",
    "AUTOLYC",
    "AUTOLYCUS:</w>",
    "Con",
    "g,</w>",
    ".'</w>",
    "lord</w>",
    "sir.</w>",
    "mai",
    "CLAR",
    "CLARENCE:</w>",
    "ut",
    "More</w>",
    "father's</w>",
    "Third</w>",
    "'d.</w>",
    "vy</w>",
    "shalt</w>",
    "Clow",
    "Provost:</w>",
    "us.</w>",
    "For",
    "self.</w>",
    "word</w>",
    "happy</w>",
    "vant:</w>",
    "EY:</w>",
    "NOR",
    "BEN",
    "BENV",
    "BENVOLIO:</w>",
    "Clown:</w>",
    "tongue</w>",
    "gs</w>",
    "ks,</w>",
    "derer:</w>",
    "unc",
    "GRUMIO:</w>",
    "PROS",
    "PROSP",
    "PROSPERO:</w>",
    "die</w>",
    "ye",
    "lay</w>",
    "said</w>",
    "thank</w>",
    "ret",
    "lif",
    "Murderer:</w>",
    "MERC",
    "MERCUTIO:</w>",
    "he's</w>",
    "cei",
    "dier",
    "kis",
    "LUCENTIO:</w>",
    "Re",
    "brea",
    "Here",
    "Were</w>",
    "other",
    "Take</w>",
    "prove</w>",
    "mistres",
    "her,</w>",
    "LAND:</w>",
    "Servant:</w>",
    "PO",
    "POMP",
    "yi",
    "servi",
    "only</w>",
    "sir;</w>",
    "justi",
    "Give</w>",
    "Loo",
    "tain</w>",
    "subje",
    "Do",
    "Lu",
    "PAU",
    "PAULINA:</w>",
    "gainst</w>",
    "words</w>",
    "beseech</w>",
    "child",
    "At</w>",
    "POMPEY:</w>",
    "GREMIO:</w>",
    "'t.</w>",
    "himself</w>",
    ",'</w>",
    "VOL",
    "VOLUM",
    "VOLUMN",
    "VOLUMNIA:</w>",
    "Mu",
    "POLIX",
    "POLIXEN",
    "POLIXENES:</w>",
    "ANT",
    "Au",
    "Was</w>",
    "him;</w>",
    "Gent",
    "cau",
    "so.</w>",
    "bi",
    "Serving",
    "Servingman:</w>",
    "HAST",
    "HASTING",
    "HASTINGS:</w>",
    "BER",
    "GON",
    "kind</w>",
    "offen",
    "toge",
    "Su",
    "not.</w>",
    "Gentle",
    "after</w>",
    "o'",
    "sion</w>",
    "m'd</w>",
    "o.</w>",
    "T:</w>",
    "Tybal",
    "LAU",
    "LAUR",
    "LAURENCE:</w>",
    "help</w>",
    "purpo",
    "warran",
    "wife</w>",
    "pardon</w>",
    "merc",
    "let's</w>",
    "nur",
    "morrow"
  ],
  "merges": [
    [
      "e",
      "</w>"
    ],
    [
      "t",
      "h"
    ],
    [
      ",",
      "</w>"
    ],
    [
      "t",
      "</w>"
    ],
    [
      "s",
      "</w>"
    ],
    [
      "d",
      "</w>"
    ],
    [
      "o",
      "u"
    ],
    [
      "e",
      "r"
    ],
    [
      "y",
      "</w>"
    ],
    [
      "i",
      "n"
    ],
    [
      ":",
      "</w>"
    ],
    [
      "a",
      "n"
    ],
    [
      "o",
      "r"
    ],
    [
      "o",
      "</w>"
    ],
    [
      ".",
      "</w>"
    ],
    [
      "e",
      "n"
    ],
    [
      "a",
      "r"
    ],
    [
      "o",
      "n"
    ],
    [
      "l",
      "l"
    ],
    [
      "h",
      "a"
    ],
    [
      "th",
      "e</w>"
    ],
    [
      "i",
      "s</w>"
    ],
    [
      "f",
      "</w>"
    ],
    [
      "e",
      "s"
    ],
    [
      "y",
      "ou"
    ],
    [
      "I",
      "</w>"
    ],
    [
      "ll",
      "</w>"
    ],
    [
      "t",
      "o</w>"
    ],
    [
      "an",
      "d</w>"
    ],
    [
      "o",
      "w"
    ],
    [
      "e",
      "a"
    ],
    [
      "e",
      ",</w>"
    ],
    [
      "r",
      "</w>"
    ],
    [
      "in",
      "g"
    ],
    [
      "w",
      "i"
    ],
    [
      "o",
      "m"
    ],
    [
      ";",
      "</w>"
    ],
    [
      "s",
      "t"
    ],
    [
      "o",
      "f</w>"
    ],
    [
      "th",
      "</w>"
    ],
    [
      "h",
      "i"
    ],
    [
      "v",
      "e</w>"
    ],
    [
      "a",
      "</w>"
    ],
    [
      "n",
      "o"
    ],
    [
      "m",
      "y</w>"
    ],
    [
      "in",
      "</w>"
    ],
    [
      "h",
      "e</w>"
    ],
    [
      "?",
      "</w>"
    ],
    [
      "s",
      "e"
    ],
    [
      "l",
      "i"
    ],
    [
      "c",
      "h"
    ],
    [
      "th",
      "e"
    ],
    [
      "r",
      "e"
    ],
    [
      "you",
      "</w>"
    ],
    [
      "!",
      "</w>"
    ],
    [
      "A",
      "n"
    ],
    [
      "o",
      "o"
    ],
    [
      "t",
      "i"
    ],
    [
      "d",
      ",</w>"
    ],
    [
      "r",
      "i"
    ],
    [
      "g",
      "h"
    ],
    [
      "m",
      "a"
    ],
    [
      "s",
      ",</w>"
    ],
    [
      "r",
      "a"
    ],
    [
      "no",
      "t</w>"
    ],
    [
      "tha",
      "t</w>"
    ],
    [
      "m",
      "</w>"
    ],
    [
      "e",
      "d</w>"
    ],
    [
      "An",
      "d</w>"
    ],
    [
      "'",
      "s</w>"
    ],
    [
      "en",
      "</w>"
    ],
    [
      "on",
      "</w>"
    ],
    [
      "m",
      "e</w>"
    ],
    [
      "y",
      ",</w>"
    ],
    [
      "l",
      "d</w>"
    ],
    [
      "ou",
      "</w>"
    ],
    [
      "l",
      "a"
    ],
    [
      "t",
      ",</w>"
    ],
    [
      "a",
      "s</w>"
    ],
    [
      "u",
      "t</w>"
    ],
    [
      "wi",
      "th</w>"
    ],
    [
      "ha",
      "t</w>"
    ],
    [
      "l",
      "e"
    ],
    [
      "b",
      "e</w>"
    ],
    [
      "you",
      "r</w>"
    ],
    [
      "b",
      "e"
    ],
    [
      "O",
      ":</w>"
    ],
    [
      "k",
      "</w>"
    ],
    [
      "d",
      "i"
    ],
    [
      "s",
      "h"
    ],
    [
      "i",
      "t</w>"
    ],
    [
      "ch",
      "</w>"
    ],
    [
      "r",
      "o"
    ],
    [
      "k",
      "e</w>"
    ],
    [
      "f",
      "or</w>"
    ],
    [
      "s",
      "i"
    ],
    [
      "u",
      "n"
    ],
    [
      "E",
      "N"
    ],
    [
      "I",
      "N"
    ],
    [
      "f",
      "a"
    ],
    [
      "ha",
      "ve</w>"
    ],
    [
      "l",
      "</w>"
    ],
    [
      "c",
      "e</w>"
    ],
    [
      "S",
      ":</w>"
    ],
    [
      "s",
      "a"
    ],
    [
      "e",
      ".</w>"
    ],
    [
      "s",
      "u"
    ],
    [
      "e",
      "e"
    ],
    [
      "ing",
      "</w>"
    ],
    [
      "A",
      "R"
    ],
    [
      "'",
      "d</w>"
    ],
    [
      "n",
      "</w>"
    ],
    [
      "th",
      "ou</w>"
    ],
    [
      "u",
      "r"
    ],
    [
      "l",
      "o"
    ],
    [
      "t",
      "a"
    ],
    [
      "w",
      "h"
    ],
    [
      "I",
      "O:</w>"
    ],
    [
      "th",
      "y</w>"
    ],
    [
      "s",
      "p"
    ],
    [
      "T",
      "h"
    ],
    [
      "i",
      "t"
    ],
    [
      "ou",
      "ld</w>"
    ],
    [
      "l",
      "y</w>"
    ],
    [
      "c",
      "a"
    ],
    [
      "W",
      "h"
    ],
    [
      "U",
      "S:</w>"
    ],
    [
      "wi",
      "ll</w>"
    ],
    [
      "b",
      "ut</w>"
    ],
    [
      "f",
      "or"
    ],
    [
      "c",
      "om"
    ],
    [
      "i",
      "r"
    ],
    [
      "w",
      "a"
    ],
    [
      "c",
      "on"
    ],
    [
      "r",
      "u"
    ],
    [
      "en",
      "t"
    ],
    [
      "T",
      "o</w>"
    ],
    [
      "w",
      "or"
    ],
    [
      "d",
      "a"
    ],
    [
      "w",
      "e"
    ],
    [
      "e",
      "v"
    ],
    [
      "b",
      "y</w>"
    ],
    [
      "ow",
      "</w>"
    ],
    [
      "U",
      "C"
    ],
    [
      "p",
      "</w>"
    ],
    [
      "s",
      ".</w>"
    ],
    [
      "sha",
      "ll</w>"
    ],
    [
      "a",
      "ll</w>"
    ],
    [
      "d",
      ".</w>"
    ],
    [
      "m",
      "i"
    ],
    [
      "hi",
      "m</w>"
    ],
    [
      "c",
      "e"
    ],
    [
      "s",
      "o</w>"
    ],
    [
      "IN",
      "G"
    ],
    [
      "A",
      "N"
    ],
    [
      "m",
      "u"
    ],
    [
      "d",
      "s</w>"
    ],
    [
      "c",
      "k"
    ],
    [
      "a",
      "t"
    ],
    [
      "E",
      "R"
    ],
    [
      "m",
      "e"
    ],
    [
      "oo",
      "d</w>"
    ],
    [
      "O",
      "R"
    ],
    [
      "gh",
      "t</w>"
    ],
    [
      "m",
      "o"
    ],
    [
      "E",
      "T"
    ],
    [
      "se",
      "l"
    ],
    [
      "d",
      "e"
    ],
    [
      "d",
      "o</w>"
    ],
    [
      "e",
      "t</w>"
    ],
    [
      "q",
      "u"
    ],
    [
      "h",
      "er</w>"
    ],
    [
      "hi",
      "m"
    ],
    [
      "'",
      "</w>"
    ],
    [
      "gh",
      "t"
    ],
    [
      "o",
      ",</w>"
    ],
    [
      "'",
      "ll</w>"
    ],
    [
      "A",
      ":</w>"
    ],
    [
      "b",
      "o"
    ],
    [
      "K",
      "ING"
    ],
    [
      "y",
      ".</w>"
    ],
    [
      "g",
      "a"
    ],
    [
      "B",
      "ut</w>"
    ],
    [
      "f",
      "rom</w>"
    ],
    [
      "u",
      "s</w>"
    ],
    [
      "c",
      "i"
    ],
    [
      "I",
      "C"
    ],
    [
      "g",
      "ood</w>"
    ],
    [
      "d",
      "o"
    ],
    [
      "f",
      "i"
    ],
    [
      "i",
      "f</w>"
    ],
    [
      "O",
      "L"
    ],
    [
      "h",
      "o"
    ],
    [
      "u",
      "p"
    ],
    [
      "n",
      "e"
    ],
    [
      "v",
      "i"
    ],
    [
      "t",
      "e"
    ],
    [
      "E",
      "L"
    ],
    [
      "f",
      "u"
    ],
    [
      "h",
      "ea"
    ],
    [
      "p",
      "o"
    ],
    [
      "p",
      "a"
    ],
    [
      "I",
      "US:</w>"
    ],
    [
      "KING",
      "</w>"
    ],
    [
      "AR",
      "D"
    ],
    [
      "f",
      "e"
    ],
    [
      "h",
      "e"
    ],
    [
      "w",
      "ould</w>"
    ],
    [
      "F",
      "or</w>"
    ],
    [
      "the",
      "ir</w>"
    ],
    [
      "-",
      "-"
    ],
    [
      "S",
      "T"
    ],
    [
      "M",
      "y</w>"
    ],
    [
      "o",
      "f"
    ],
    [
      "the",
      "y</w>"
    ],
    [
      "a",
      "m</w>"
    ],
    [
      "b",
      "a"
    ],
    [
      "I",
      "'ll</w>"
    ],
    [
      "v",
      "e"
    ],
    [
      "o",
      "l"
    ],
    [
      "E",
      ":</w>"
    ],
    [
      "g",
      "i"
    ],
    [
      "g",
      "e</w>"
    ],
    [
      "O",
      "N"
    ],
    [
      "g",
      "u"
    ],
    [
      "b",
      "le</w>"
    ],
    [
      "d",
      ";</w>"
    ],
    [
      "t",
      "ru"
    ],
    [
      "g",
      "</w>"
    ],
    [
      "d",
      ":</w>"
    ],
    [
      "ll",
      ",</w>"
    ],
    [
      "A",
      "s</w>"
    ],
    [
      "b",
      "ro"
    ],
    [
      "I",
      "I"
    ],
    [
      "s",
      ":</w>"
    ],
    [
      "g",
      "e"
    ],
    [
      "A",
      "</w>"
    ],
    [
      "g",
      "ra"
    ],
    [
      "p",
      "ro"
    ],
    [
      "t",
      ".</w>"
    ],
    [
      "gh",
      "</w>"
    ],
    [
      "n",
      "i"
    ],
    [
      "s",
      ";</w>"
    ],
    [
      "s",
      "on"
    ],
    [
      "li",
      "ke</w>"
    ],
    [
      "ma",
      "ke</w>"
    ],
    [
      "you",
      ",</w>"
    ],
    [
      "k",
      "ing"
    ],
    [
      "n",
      "a"
    ],
    [
      "ARD",
      "</w>"
    ],
    [
      "R",
      "O"
    ],
    [
      "T",
      "IO:</w>"
    ],
    [
      "w",
      "</w>"
    ],
    [
      "ma",
      "y</w>"
    ],
    [
      "ET",
      ":</w>"
    ],
    [
      "mu",
      "st</w>"
    ],
    [
      "m",
      "p"
    ],
    [
      "A",
      "U"
    ],
    [
      "g",
      "o"
    ],
    [
      "d",
      "u"
    ],
    [
      "Y",
      "</w>"
    ],
    [
      "E",
      "</w>"
    ],
    [
      "Y",
      "ou</w>"
    ],
    [
      "the",
      "m</w>"
    ],
    [
      "ga",
      "in"
    ],
    [
      "t",
      "o"
    ],
    [
      "f",
      "ri"
    ],
    [
      "sp",
      "ea"
    ],
    [
      "whi",
      "ch</w>"
    ],
    [
      "K",
      ":</w>"
    ],
    [
      "I",
      "f</w>"
    ],
    [
      "i",
      "d</w>"
    ],
    [
      "C",
      "A"
    ],
    [
      "IC",
      "H"
    ],
    [
      "R",
      "ICH"
    ],
    [
      "t",
      "s</w>"
    ],
    [
      "D",
      "U"
    ],
    [
      "DU",
      "K"
    ],
    [
      "ha",
      "d</w>"
    ],
    [
      "DUK",
      "E</w>"
    ],
    [
      "b",
      "u"
    ],
    [
      "p",
      "p"
    ],
    [
      "H",
      "a"
    ],
    [
      "k",
      "now</w>"
    ],
    [
      "e",
      "l"
    ],
    [
      "r",
      "y</w>"
    ],
    [
      "EN",
      "TIO:</w>"
    ],
    [
      "s",
      "o"
    ],
    [
      "G",
      "o"
    ],
    [
      "ER",
      ":</w>"
    ],
    [
      "O",
      "</w>"
    ],
    [
      "Y",
      ":</w>"
    ],
    [
      "O",
      ",</w>"
    ],
    [
      "H",
      "e</w>"
    ],
    [
      "IN",
      "C"
    ],
    [
      "p",
      "er"
    ],
    [
      "e",
      "y"
    ],
    [
      "d",
      "s,</w>"
    ],
    [
      "sir",
      ",</w>"
    ],
    [
      "fu",
      "l</w>"
    ],
    [
      "F",
      "ir"
    ],
    [
      "sa",
      "y</w>"
    ],
    [
      "d",
      "y</w>"
    ],
    [
      "sel",
      "f"
    ],
    [
      "A",
      "B"
    ],
    [
      "Whi",
      "ch</w>"
    ],
    [
      "su",
      "ch</w>"
    ],
    [
      "e",
      "x"
    ],
    [
      "k",
      ",</w>"
    ],
    [
      "ta",
      "ke</w>"
    ],
    [
      "a",
      "gain"
    ],
    [
      "sh",
      "</w>"
    ],
    [
      "p",
      "la"
    ],
    [
      "--",
      "</w>"
    ],
    [
      "mo",
      "st</w>"
    ],
    [
      "s",
      "?</w>"
    ],
    [
      "m",
      ",</w>"
    ],
    [
      "lo",
      "ve</w>"
    ],
    [
      "I",
      "n</w>"
    ],
    [
      "L",
      "O"
    ],
    [
      "gi",
      "ve</w>"
    ],
    [
      "I",
      ":</w>"
    ],
    [
      "y",
      "et</w>"
    ],
    [
      "W",
      "ith</w>"
    ],
    [
      "RICH",
      "ARD</w>"
    ],
    [
      "Fir",
      "st</w>"
    ],
    [
      "c",
      "oun"
    ],
    [
      "E",
      "ST"
    ],
    [
      "fri",
      "en"
    ],
    [
      "O",
      "f</w>"
    ],
    [
      "t",
      ":</w>"
    ],
    [
      "c",
      "u"
    ],
    [
      "a",
      "l"
    ],
    [
      "s",
      "!</w>"
    ],
    [
      "G",
      "LO"
    ],
    [
      "GLO",
      "UC"
    ],
    [
      "GLOUC",
      "EST"
    ],
    [
      "GLOUCEST",
      "ER:</w>"
    ],
    [
      "a",
      "c"
    ],
    [
      "E",
      "EN"
    ],
    [
      "L",
      "or"
    ],
    [
      "M",
      "a"
    ],
    [
      "L",
      "I"
    ],
    [
      "t",
      "y</w>"
    ],
    [
      "p",
      "e"
    ],
    [
      "y",
      ";</w>"
    ],
    [
      "d",
      "?</w>"
    ],
    [
      "Q",
      "U"
    ],
    [
      "QU",
      "EEN"
    ],
    [
      "V",
      "INC"
    ],
    [
      "VINC",
      "ENTIO:</w>"
    ],
    [
      "i",
      "l"
    ],
    [
      "y",
      ":</w>"
    ],
    [
      "O",
      "F"
    ],
    [
      "OF",
      "</w>"
    ],
    [
      "H",
      "ow</w>"
    ],
    [
      "i",
      "g"
    ],
    [
      "v",
      "o"
    ],
    [
      "lor",
      "d,</w>"
    ],
    [
      "H",
      "EN"
    ],
    [
      "d",
      "'s</w>"
    ],
    [
      "p",
      "ri"
    ],
    [
      "p",
      "ra"
    ],
    [
      "ti",
      "me</w>"
    ],
    [
      "k",
      "now"
    ],
    [
      "'",
      "tis</w>"
    ],
    [
      "S",
      "o</w>"
    ],
    [
      "HEN",
      "R"
    ],
    [
      "HENR",
      "Y</w>"
    ],
    [
      "E",
      "S"
    ],
    [
      "d",
      "!</w>"
    ],
    [
      "I",
      "s</w>"
    ],
    [
      "a",
      "f"
    ],
    [
      "ma",
      "de</w>"
    ],
    [
      "h",
      "u"
    ],
    [
      "QUEEN",
      "</w>"
    ],
    [
      "Y",
      "our</w>"
    ],
    [
      "m",
      "b"
    ],
    [
      "Y",
      "OR"
    ],
    [
      "YOR",
      "K:</w>"
    ],
    [
      "j",
      "o"
    ],
    [
      "W",
      "e</w>"
    ],
    [
      "les",
      "s</w>"
    ],
    [
      "n",
      ",</w>"
    ],
    [
      "th",
      ",</w>"
    ],
    [
      "IN",
      "IUS:</w>"
    ],
    [
      "l",
      "u"
    ],
    [
      "be",
      "t"
    ],
    [
      "k",
      "s</w>"
    ],
    [
      "i",
      "s"
    ],
    [
      "P",
      "ET"
    ],
    [
      "an",
      "y</w>"
    ],
    [
      "u",
      "se</w>"
    ],
    [
      "I",
      "t</w>"
    ],
    [
      "'",
      "st</w>"
    ],
    [
      "ar",
      "t</w>"
    ],
    [
      "'",
      "T"
    ],
    [
      "E",
      "D"
    ],
    [
      "ED",
      "W"
    ],
    [
      "wa",
      "y</w>"
    ],
    [
      "Wh",
      "y,</w>"
    ],
    [
      "G",
      "R"
    ],
    [
      "mu",
      "ch</w>"
    ],
    [
      "T",
      "H"
    ],
    [
      "U",
      "M"
    ],
    [
      "M",
      "I"
    ],
    [
      "p",
      "lea"
    ],
    [
      "M",
      "EN"
    ],
    [
      "a",
      "d"
    ],
    [
      "L",
      "E"
    ],
    [
      "L",
      "UC"
    ],
    [
      "m",
      "y"
    ],
    [
      "I",
      "S"
    ],
    [
      "can",
      "not</w>"
    ],
    [
      "no",
      "ble</w>"
    ],
    [
      "con",
      "d</w>"
    ],
    [
      "c",
      "o"
    ],
    [
      "do",
      "th</w>"
    ],
    [
      "t",
      "u"
    ],
    [
      "M",
      "E"
    ],
    [
      "k",
      "in"
    ],
    [
      "d",
      "war"
    ],
    [
      "S",
      "e"
    ],
    [
      "O",
      "r</w>"
    ],
    [
      "E",
      "dwar"
    ],
    [
      "RO",
      "ME"
    ],
    [
      "ROME",
      "O:</w>"
    ],
    [
      "MEN",
      "EN"
    ],
    [
      "MENEN",
      "IUS:</w>"
    ],
    [
      "N",
      "o"
    ],
    [
      "R",
      "i"
    ],
    [
      "B",
      "y</w>"
    ],
    [
      "thin",
      "k</w>"
    ],
    [
      "nes",
      "s</w>"
    ],
    [
      "a",
      "y,</w>"
    ],
    [
      "PET",
      "R"
    ],
    [
      "PETR",
      "UC"
    ],
    [
      "PETRUC",
      "H"
    ],
    [
      "PETRUCH",
      "IO:</w>"
    ],
    [
      "Go",
      "d</w>"
    ],
    [
      "spea",
      "k</w>"
    ],
    [
      "'",
      "d,</w>"
    ],
    [
      "j",
      "u"
    ],
    [
      "him",
      ".</w>"
    ],
    [
      "a",
      "s"
    ],
    [
      "C",
      "ome,</w>"
    ],
    [
      "A",
      "y,</w>"
    ],
    [
      "M",
      "AR"
    ],
    [
      "ne",
      "w"
    ],
    [
      "H",
      "A"
    ],
    [
      "ON",
      "T"
    ],
    [
      "v",
      "an"
    ],
    [
      "C",
      "OR"
    ],
    [
      "COR",
      "I"
    ],
    [
      "CORI",
      "OL"
    ],
    [
      "CORIOL",
      "AN"
    ],
    [
      "bro",
      "ther"
    ],
    [
      "Se",
      "cond</w>"
    ],
    [
      "be",
      "ing</w>"
    ],
    [
      "k",
      "e"
    ],
    [
      "CORIOLAN",
      "US:</w>"
    ],
    [
      "you",
      ".</w>"
    ],
    [
      "man",
      ":</w>"
    ],
    [
      "y",
      "!</w>"
    ],
    [
      "c",
      "t</w>"
    ],
    [
      "B",
      "e"
    ],
    [
      "t",
      "ri"
    ],
    [
      "c",
      "row"
    ],
    [
      "fa",
      "ir</w>"
    ],
    [
      "t",
      "'s</w>"
    ],
    [
      "R",
      "ome"
    ],
    [
      "B",
      "A"
    ],
    [
      "da",
      "u"
    ],
    [
      "ow",
      "n</w>"
    ],
    [
      "t",
      ";</w>"
    ],
    [
      "b",
      "loo"
    ],
    [
      "ri",
      "e"
    ],
    [
      "z",
      "en"
    ],
    [
      "no",
      "t,</w>"
    ],
    [
      "'",
      "er</w>"
    ],
    [
      "gent",
      "le"
    ],
    [
      "Lor",
      "d</w>"
    ],
    [
      "I",
      "V"
    ],
    [
      "D",
      ":</w>"
    ],
    [
      "g",
      "reat</w>"
    ],
    [
      "II",
      "I:</w>"
    ],
    [
      "'",
      "t</w>"
    ],
    [
      "p",
      "re"
    ],
    [
      "t",
      "le</w>"
    ],
    [
      "y",
      "s</w>"
    ],
    [
      "the",
      "m"
    ],
    [
      "W",
      "ar"
    ],
    [
      "s",
      "weet</w>"
    ],
    [
      "War",
      "wi"
    ],
    [
      "y",
      "?</w>"
    ],
    [
      "C",
      "a"
    ],
    [
      "H",
      "is</w>"
    ],
    [
      "be",
      "fore</w>"
    ],
    [
      "A",
      "D"
    ],
    [
      "U",
      "n"
    ],
    [
      "'T",
      "is</w>"
    ],
    [
      "IS",
      "AB"
    ],
    [
      "ISAB",
      "EL"
    ],
    [
      "ISABEL",
      "L"
    ],
    [
      "ISABELL",
      "A:</w>"
    ],
    [
      "ton",
      "gu"
    ],
    [
      "p",
      "u"
    ],
    [
      "R",
      "AN"
    ],
    [
      "L",
      "et</w>"
    ],
    [
      "An",
      "d,</w>"
    ],
    [
      "J",
      "U"
    ],
    [
      "JU",
      "LI"
    ],
    [
      "JULI",
      "ET:</w>"
    ],
    [
      "LE",
      "ONT"
    ],
    [
      "LEONT",
      "ES:</w>"
    ],
    [
      "s",
      "la"
    ],
    [
      "da",
      "y</w>"
    ],
    [
      "ti",
      "on</w>"
    ],
    [
      "r",
      "y,</w>"
    ],
    [
      "u",
      "s,</w>"
    ],
    [
      "thou",
      "gh</w>"
    ],
    [
      "B",
      "u"
    ],
    [
      "L",
      "AD"
    ],
    [
      "LAD",
      "Y</w>"
    ],
    [
      "o",
      "p"
    ],
    [
      "EN",
      "C"
    ],
    [
      "ENC",
      "E:</w>"
    ],
    [
      "ir",
      ",</w>"
    ],
    [
      "s",
      "wor"
    ],
    [
      "B",
      "R"
    ],
    [
      "se",
      ":</w>"
    ],
    [
      "C",
      "iti"
    ],
    [
      "Citi",
      "zen"
    ],
    [
      "lea",
      "ve</w>"
    ],
    [
      "H",
      "en"
    ],
    [
      "again",
      "st</w>"
    ],
    [
      "n",
      ".</w>"
    ],
    [
      "N",
      "ay,</w>"
    ],
    [
      "ch",
      ",</w>"
    ],
    [
      "y",
      "'s</w>"
    ],
    [
      "S",
      "IC"
    ],
    [
      "SIC",
      "INIUS:</w>"
    ],
    [
      "now",
      ",</w>"
    ],
    [
      "bo",
      "th</w>"
    ],
    [
      "t",
      "w"
    ],
    [
      "loo",
      "k</w>"
    ],
    [
      "tho",
      "se</w>"
    ],
    [
      "P",
      "ro"
    ],
    [
      "li",
      "e"
    ],
    [
      "me",
      ";</w>"
    ],
    [
      "ca",
      "use</w>"
    ],
    [
      "LUC",
      "IO:</w>"
    ],
    [
      "o",
      "ther</w>"
    ],
    [
      "No",
      "t</w>"
    ],
    [
      "to",
      "-"
    ],
    [
      "Ri",
      "char"
    ],
    [
      "EDW",
      "ARD</w>"
    ],
    [
      "IV",
      ":</w>"
    ],
    [
      "t",
      "ra"
    ],
    [
      "m",
      "s</w>"
    ],
    [
      "Ha",
      "ve</w>"
    ],
    [
      "i",
      "ve</w>"
    ],
    [
      "Y",
      "or"
    ],
    [
      "u",
      "l"
    ],
    [
      "o",
      "'</w>"
    ],
    [
      "b",
      "ra"
    ],
    [
      "Th",
      "y</w>"
    ],
    [
      "k",
      ".</w>"
    ],
    [
      "t",
      "?</w>"
    ],
    [
      "ELI",
      "Z"
    ],
    [
      "ELIZ",
      "AB"
    ],
    [
      "ELIZAB",
      "ETH"
    ],
    [
      "ELIZABETH",
      ":</w>"
    ],
    [
      "un",
      "to</w>"
    ],
    [
      "f",
      "t</w>"
    ],
    [
      "su",
      "b"
    ],
    [
      "tru",
      "e</w>"
    ],
    [
      "hu",
      "s"
    ],
    [
      "E",
      "n"
    ],
    [
      "GR",
      "E"
    ],
    [
      "I",
      "AN"
    ],
    [
      "pe",
      "op"
    ],
    [
      "lit",
      "tle</w>"
    ],
    [
      "d",
      "st</w>"
    ],
    [
      ",",
      "--</w>"
    ],
    [
      "na",
      "me</w>"
    ],
    [
      "S",
      "</w>"
    ],
    [
      "ro",
      "y"
    ],
    [
      "C",
      "L"
    ],
    [
      "mo",
      "ther"
    ],
    [
      "I",
      ",</w>"
    ],
    [
      "Now",
      ",</w>"
    ],
    [
      "li",
      "fe</w>"
    ],
    [
      "W",
      "AR"
    ],
    [
      "WAR",
      "W"
    ],
    [
      "WARW",
      "IC"
    ],
    [
      "WARWIC",
      "K:</w>"
    ],
    [
      "Citizen",
      ":</w>"
    ],
    [
      "U",
      "T"
    ],
    [
      "bet",
      "ter</w>"
    ],
    [
      "king",
      ",</w>"
    ],
    [
      "ha",
      "pp"
    ],
    [
      "N",
      "ur"
    ],
    [
      "d",
      "ly</w>"
    ],
    [
      "n",
      ":</w>"
    ],
    [
      "HA",
      "M"
    ],
    [
      "HAM",
      ":</w>"
    ],
    [
      "tw",
      "o</w>"
    ],
    [
      "CA",
      "P"
    ],
    [
      "CAP",
      "U"
    ],
    [
      "CAPU",
      "LET:</w>"
    ],
    [
      "W",
      "ell,</w>"
    ],
    [
      "S",
      "hall</w>"
    ],
    [
      "h",
      ",</w>"
    ],
    [
      "p",
      "i"
    ],
    [
      "l",
      "y,</w>"
    ],
    [
      "s",
      "'</w>"
    ],
    [
      "BR",
      "UT"
    ],
    [
      "BRUT",
      "US:</w>"
    ],
    [
      "B",
      "UC"
    ],
    [
      "BUC",
      "KING"
    ],
    [
      "BUCKING",
      "HAM:</w>"
    ],
    [
      "a",
      "wa"
    ],
    [
      "t",
      "s,</w>"
    ],
    [
      "W",
      "ill</w>"
    ],
    [
      "F",
      "rom</w>"
    ],
    [
      "kee",
      "p</w>"
    ],
    [
      "b",
      "id</w>"
    ],
    [
      "no",
      "thing</w>"
    ],
    [
      "c",
      "lo"
    ],
    [
      "wor",
      "l"
    ],
    [
      "B",
      "OLING"
    ],
    [
      "BOLING",
      "BRO"
    ],
    [
      "BOLINGBRO",
      "K"
    ],
    [
      "BOLINGBROK",
      "E:</w>"
    ],
    [
      "T",
      "RAN"
    ],
    [
      "TRAN",
      "IO:</w>"
    ],
    [
      "who",
      "se</w>"
    ],
    [
      "an",
      "s"
    ],
    [
      "b",
      "ring</w>"
    ],
    [
      "self",
      ",</w>"
    ],
    [
      "S",
      "a"
    ],
    [
      "Nur",
      "se:</w>"
    ],
    [
      "w",
      "o"
    ],
    [
      "j",
      "e"
    ],
    [
      "pra",
      "y</w>"
    ],
    [
      "d",
      "s.</w>"
    ],
    [
      "p",
      "s</w>"
    ],
    [
      "dou",
      "b"
    ],
    [
      "w",
      "ron"
    ],
    [
      "in",
      "t</w>"
    ],
    [
      "T",
      "a"
    ],
    [
      "d",
      "ra"
    ],
    [
      "MAR",
      "G"
    ],
    [
      "MARG",
      "AR"
    ],
    [
      "MARGAR",
      "ET:</w>"
    ],
    [
      "ES",
      "S</w>"
    ],
    [
      "fin",
      "d</w>"
    ],
    [
      "K",
      "ing</w>"
    ],
    [
      "MI",
      "L"
    ],
    [
      "O",
      "ur</w>"
    ],
    [
      "ey",
      "es</w>"
    ],
    [
      "Wh",
      "y</w>"
    ],
    [
      "P",
      "e"
    ],
    [
      "re",
      "me"
    ],
    [
      "Y",
      "et</w>"
    ],
    [
      "dau",
      "ghter"
    ],
    [
      "com",
      "for"
    ],
    [
      "S",
      "he</w>"
    ],
    [
      "B",
      "o"
    ],
    [
      "vo",
      "i"
    ],
    [
      "youn",
      "g</w>"
    ],
    [
      "AN",
      "G"
    ],
    [
      "ANG",
      "ELO:</w>"
    ],
    [
      "H",
      "OR"
    ],
    [
      "me",
      ":</w>"
    ],
    [
      "qu",
      "i"
    ],
    [
      "n",
      "'d</w>"
    ],
    [
      "p",
      ",</w>"
    ],
    [
      "C",
      "laren"
    ],
    [
      "EL",
      ":</w>"
    ],
    [
      "K",
      "A"
    ],
    [
      "IN",
      "A:</w>"
    ],
    [
      "Mar",
      "ci"
    ],
    [
      "L",
      "i"
    ],
    [
      "lon",
      "g</w>"
    ],
    [
      "y",
      "ear"
    ],
    [
      "KA",
      "THAR"
    ],
    [
      "KATHAR",
      "INA:</w>"
    ],
    [
      "ca",
      "me</w>"
    ],
    [
      "thou",
      "ght</w>"
    ],
    [
      "f",
      ",</w>"
    ],
    [
      "me",
      "?</w>"
    ],
    [
      "H",
      "ere</w>"
    ],
    [
      "D",
      "u"
    ],
    [
      "En",
      "g"
    ],
    [
      "M",
      "P"
    ],
    [
      "a",
      "b"
    ],
    [
      "el",
      "se</w>"
    ],
    [
      "ce",
      ":</w>"
    ],
    [
      "la",
      "w"
    ],
    [
      "hear",
      "d</w>"
    ],
    [
      "an",
      "d,</w>"
    ],
    [
      "c",
      "la"
    ],
    [
      "graci",
      "ous</w>"
    ],
    [
      "D",
      "o</w>"
    ],
    [
      "in",
      "to</w>"
    ],
    [
      "lo",
      "ve,</w>"
    ],
    [
      "g",
      "rie"
    ],
    [
      "ES",
      "CA"
    ],
    [
      "ESCA",
      "L"
    ],
    [
      "ESCAL",
      "US:</w>"
    ],
    [
      "t",
      "!</w>"
    ],
    [
      "s",
      "lee"
    ],
    [
      "lo",
      "ve"
    ],
    [
      "of",
      "f</w>"
    ],
    [
      "fe",
      "c"
    ],
    [
      "S",
      "ir,</w>"
    ],
    [
      "c",
      "</w>"
    ],
    [
      "th",
      ".</w>"
    ],
    [
      "lor",
      "d.</w>"
    ],
    [
      "AN",
      "D:</w>"
    ],
    [
      "coun",
      "t"
    ],
    [
      "hea",
      "ven</w>"
    ],
    [
      "there",
      "fore</w>"
    ],
    [
      "Du",
      "ke</w>"
    ],
    [
      "DUC",
      "H"
    ],
    [
      "sta",
      "y</w>"
    ],
    [
      "sin",
      "ce</w>"
    ],
    [
      "well",
      ".</w>"
    ],
    [
      "fir",
      "st</w>"
    ],
    [
      "ma",
      "kes</w>"
    ],
    [
      ",",
      "--"
    ],
    [
      "my",
      "self</w>"
    ],
    [
      "roy",
      "al</w>"
    ],
    [
      "Pro",
      "vo"
    ],
    [
      "RO",
      "S"
    ],
    [
      "fa",
      "ul"
    ],
    [
      "f",
      "o"
    ],
    [
      "for",
      "th</w>"
    ],
    [
      "father",
      ",</w>"
    ],
    [
      "on",
      "ce</w>"
    ],
    [
      "k",
      "'d</w>"
    ],
    [
      "I",
      "A:</w>"
    ],
    [
      "m",
      ".</w>"
    ],
    [
      "p",
      "t</w>"
    ],
    [
      "do",
      "st</w>"
    ],
    [
      "V",
      "I:</w>"
    ],
    [
      "CA",
      "MIL"
    ],
    [
      "CAMIL",
      "LO:</w>"
    ],
    [
      "thou",
      "sand</w>"
    ],
    [
      "E",
      "ven</w>"
    ],
    [
      "Edwar",
      "d</w>"
    ],
    [
      "DUCH",
      "ESS</w>"
    ],
    [
      "l",
      "y.</w>"
    ],
    [
      "n",
      "s</w>"
    ],
    [
      "L",
      "e"
    ],
    [
      "C",
      "ome</w>"
    ],
    [
      "d",
      "-"
    ],
    [
      "vere",
      "ig"
    ],
    [
      "HOR",
      "T"
    ],
    [
      "HORT",
      "EN"
    ],
    [
      "HORTEN",
      "S"
    ],
    [
      "Bu",
      "t,</w>"
    ],
    [
      "of",
      "fi"
    ],
    [
      "tur",
      "n</w>"
    ],
    [
      "A",
      "ll</w>"
    ],
    [
      "p",
      "her"
    ],
    [
      "so",
      "vereig"
    ],
    [
      "F",
      "R"
    ],
    [
      "FR",
      "I"
    ],
    [
      "FRI",
      "AR"
    ],
    [
      "FRIAR",
      "</w>"
    ],
    [
      "HORTENS",
      "IO:</w>"
    ],
    [
      "ce",
      ";</w>"
    ],
    [
      "vir",
      "tu"
    ],
    [
      "ter",
      ",</w>"
    ],
    [
      "U",
      "pon</w>"
    ],
    [
      "i",
      "'</w>"
    ],
    [
      "A",
      "re</w>"
    ],
    [
      "la",
      "u"
    ],
    [
      "T",
      "y"
    ],
    [
      "wil",
      "t</w>"
    ],
    [
      "thou",
      ",</w>"
    ],
    [
      "BA",
      "P"
    ],
    [
      "BAP",
      "T"
    ],
    [
      "BAPT",
      "IST"
    ],
    [
      "BAPTIST",
      "A:</w>"
    ],
    [
      "W",
      "ould</w>"
    ],
    [
      "rou",
      "gh</w>"
    ],
    [
      "C",
      "O"
    ],
    [
      "CO",
      "MINIUS:</w>"
    ],
    [
      "I",
      "n"
    ],
    [
      "li",
      "fe,</w>"
    ],
    [
      "M",
      "ur"
    ],
    [
      "AUT",
      "OL"
    ],
    [
      "AUTOL",
      "Y"
    ],
    [
      "AUTOLY",
      "C"
    ],
    [
      "AUTOLYC",
      "US:</w>"
    ],
    [
      "C",
      "on"
    ],
    [
      "g",
      ",</w>"
    ],
    [
      ".",
      "'</w>"
    ],
    [
      "lor",
      "d</w>"
    ],
    [
      "sir",
      ".</w>"
    ],
    [
      "ma",
      "i"
    ],
    [
      "CL",
      "AR"
    ],
    [
      "CLAR",
      "ENCE:</w>"
    ],
    [
      "u",
      "t"
    ],
    [
      "M",
      "ore</w>"
    ],
    [
      "father",
      "'s</w>"
    ],
    [
      "Thir",
      "d</w>"
    ],
    [
      "'",
      "d.</w>"
    ],
    [
      "v",
      "y</w>"
    ],
    [
      "shal",
      "t</w>"
    ],
    [
      "C",
      "low"
    ],
    [
      "Provo",
      "st:</w>"
    ],
    [
      "u",
      "s.</w>"
    ],
    [
      "F",
      "or"
    ],
    [
      "self",
      ".</w>"
    ],
    [
      "wor",
      "d</w>"
    ],
    [
      "happ",
      "y</w>"
    ],
    [
      "van",
      "t:</w>"
    ],
    [
      "E",
      "Y:</w>"
    ],
    [
      "N",
      "OR"
    ],
    [
      "B",
      "EN"
    ],
    [
      "BEN",
      "V"
    ],
    [
      "BENV",
      "OLIO:</w>"
    ],
    [
      "Clow",
      "n:</w>"
    ],
    [
      "tongu",
      "e</w>"
    ],
    [
      "g",
      "s</w>"
    ],
    [
      "k",
      "s,</w>"
    ],
    [
      "derer",
      ":</w>"
    ],
    [
      "un",
      "c"
    ],
    [
      "GR",
      "UMIO:</w>"
    ],
    [
      "P",
      "ROS"
    ],
    [
      "PROS",
      "P"
    ],
    [
      "PROSP",
      "ERO:</w>"
    ],
    [
      "di",
      "e</w>"
    ],
    [
      "y",
      "e"
    ],
    [
      "la",
      "y</w>"
    ],
    [
      "sa",
      "id</w>"
    ],
    [
      "than",
      "k</w>"
    ],
    [
      "re",
      "t"
    ],
    [
      "li",
      "f"
    ],
    [
      "Mur",
      "derer:</w>"
    ],
    [
      "MER",
      "C"
    ],
    [
      "MERC",
      "UTIO:</w>"
    ],
    [
      "he",
      "'s</w>"
    ],
    [
      "ce",
      "i"
    ],
    [
      "di",
      "er"
    ],
    [
      "k",
      "is"
    ],
    [
      "LUC",
      "ENTIO:</w>"
    ],
    [
      "R",
      "e"
    ],
    [
      "b",
      "rea"
    ],
    [
      "H",
      "ere"
    ],
    [
      "W",
      "ere</w>"
    ],
    [
      "o",
      "ther"
    ],
    [
      "Ta",
      "ke</w>"
    ],
    [
      "pro",
      "ve</w>"
    ],
    [
      "mist",
      "res"
    ],
    [
      "her",
      ",</w>"
    ],
    [
      "L",
      "AND:</w>"
    ],
    [
      "Ser",
      "vant:</w>"
    ],
    [
      "P",
      "O"
    ],
    [
      "PO",
      "MP"
    ],
    [
      "y",
      "i"
    ],
    [
      "ser",
      "vi"
    ],
    [
      "on",
      "ly</w>"
    ],
    [
      "sir",
      ";</w>"
    ],
    [
      "ju",
      "sti"
    ],
    [
      "G",
      "ive</w>"
    ],
    [
      "L",
      "oo"
    ],
    [
      "ta",
      "in</w>"
    ],
    [
      "sub",
      "je"
    ],
    [
      "D",
      "o"
    ],
    [
      "L",
      "u"
    ],
    [
      "P",
      "AU"
    ],
    [
      "PAU",
      "LINA:</w>"
    ],
    [
      "gain",
      "st</w>"
    ],
    [
      "wor",
      "ds</w>"
    ],
    [
      "besee",
      "ch</w>"
    ],
    [
      "chil",
      "d"
    ],
    [
      "A",
      "t</w>"
    ],
    [
      "POMP",
      "EY:</w>"
    ],
    [
      "GRE",
      "MIO:</w>"
    ],
    [
      "'",
      "t.</w>"
    ],
    [
      "him",
      "self</w>"
    ],
    [
      ",",
      "'</w>"
    ],
    [
      "V",
      "OL"
    ],
    [
      "VOL",
      "UM"
    ],
    [
      "VOLUM",
      "N"
    ],
    [
      "VOLUMN",
      "IA:</w>"
    ],
    [
      "M",
      "u"
    ],
    [
      "POLI",
      "X"
    ],
    [
      "POLIX",
      "EN"
    ],
    [
      "POLIXEN",
      "ES:</w>"
    ],
    [
      "AN",
      "T"
    ],
    [
      "A",
      "u"
    ],
    [
      "W",
      "as</w>"
    ],
    [
      "him",
      ";</w>"
    ],
    [
      "G",
      "ent"
    ],
    [
      "ca",
      "u"
    ],
    [
      "so",
      ".</w>"
    ],
    [
      "b",
      "i"
    ],
    [
      "Ser",
      "ving"
    ],
    [
      "Serving",
      "man:</w>"
    ],
    [
      "HA",
      "ST"
    ],
    [
      "HAST",
      "ING"
    ],
    [
      "HASTING",
      "S:</w>"
    ],
    [
      "B",
      "ER"
    ],
    [
      "G",
      "ON"
    ],
    [
      "kin",
      "d</w>"
    ],
    [
      "of",
      "fen"
    ],
    [
      "to",
      "ge"
    ],
    [
      "S",
      "u"
    ],
    [
      "no",
      "t.</w>"
    ],
    [
      "Gent",
      "le"
    ],
    [
      "af",
      "ter</w>"
    ],
    [
      "o",
      "'"
    ],
    [
      "si",
      "on</w>"
    ],
    [
      "m",
      "'d</w>"
    ],
    [
      "o",
      ".</w>"
    ],
    [
      "T",
      ":</w>"
    ],
    [
      "Ty",
      "bal"
    ],
    [
      "L",
      "AU"
    ],
    [
      "LAU",
      "R"
    ],
    [
      "LAUR",
      "ENCE:</w>"
    ],
    [
      "hel",
      "p</w>"
    ],
    [
      "pur",
      "po"
    ],
    [
      "war",
      "ran"
    ],
    [
      "wi",
      "fe</w>"
    ],
    [
      "par",
      "don</w>"
    ],
    [
      "mer",
      "c"
    ],
    [
      "le",
      "t's</w>"
    ],
    [
      "n",
      "ur"
    ],
    [
      "mor",
      "row"
    ]
  ]
}